.	15732
)	10575
s	9136
:	7462
▁	7155
ದ	5812
ಿ	4420
▁(	4179
▁%	3979
,	3944
▁(_	3944
வ	3715
Name	3704
ು	3649
ம்	3488
a	3411
க்க	3372
ಕ	3357
d	3169
ರ	3165
▁ಅ	3064
ವನ್ನು	2986
ವ	2945
ர	2884
ட	2863
-	2858
ಗಳನ್ನು	2851
ಮ	2842
ர்	2777
t	2763
க	2730
e	2701
ಗಳು	2701
ಾ	2678
▁ಒಂದು	2596
ರ್	2573
ಲ	2564
ி	2520
o	2515
து	2514
ல்	2466
▁ப	2461
ா	2442
ನ	2418
i	2407
ೆ	2372
ல	2363
ಡ	2357
க்கு	2326
▁அ	2278
ப்ப	2276
ಸ್	2274
"	2272
ப	2253
l	2233
ಟ್	2125
ತ	2094
▁த	2031
ಗಳ	2026
ಿಸಿ	2025
ட்ட	2017
▁ಆ	2015
ೇ	2009
ಿಸು	2005
ோ	1997
த்த	1995
▁உள்ள	1991
ம	1963
ன்	1950
ಣ	1950
▁ಎ	1948
த	1936
p	1932
c	1921
ೋ	1912
/	1906
r	1892
ುವ	1891
▁1	1884
▁ಸ	1875
கள்	1853
ே	1817
ய	1803
▁எ	1767
▁ಪ	1760
ೀ	1745
டு	1731
ಗ	1727
ன	1714
S	1706
ನ್ನು	1703
h	1689
▁ಅನ್ನು	1658
▁ஒரு	1654
ச	1633
ಲು	1622
ೂ	1619
ಲ್	1617
ை	1610
ಿನ	1609
▁ಇ	1608
வி	1602
ு	1600
ள	1596
ரு	1590
ಟ	1588
ப்பு	1587
ಕ್ಕೆ	1583
ವು	1574
ರಿ	1559
▁இ	1556
ரி	1555
▁ಬ	1541
ಳ	1539
ும்	1537
ನ್	1536
க்	1522
ಾಗ	1517
ಿಯ	1515
▁ನ	1508
ಸ	1497
ின்	1493
▁ஐ	1491
ಗೆ	1486
▁_	1475
▁க	1473
▁ಈ	1470
ான	1451
u	1451
D	1451
T	1445
er	1423
y	1422
(	1416
f	1416
ಿಸ	1404
ைய	1401
ದು	1397
▁உ	1391
▁ಮ	1389
ஸ்	1386
வும்	1383
m	1382
▁பா	1380
%	1377
ந்த	1373
த்தை	1372
g	1368
I	1365
லை	1350
▁ಹ	1345
ಹ	1341
R	1338
▁ಪ್ರ	1326
n	1322
▁இல்	1321
வு	1317
த்து	1302
ಪ	1289
▁வி	1286
▁கோப்பு	1285
k	1284
▁ಕ	1284
ில்	1281
ಯ	1281
▁ನೀವು	1281
ೈ	1280
ದಲ್ಲಿ	1278
▁ஆ	1272
?	1272
வை	1269
▁"%	1260
ಿಸಲು	1251
ರೆ	1246
@	1245
ಿಯನ್ನು	1245
ೆಯ	1235
ಲ್ಲಿ	1216
ಬ	1216
▁ವಿ	1209
ங்கள்	1206
ರು	1199
களை	1195
ட்டு	1193
▁ம	1190
ாக	1186
ತ್ತ	1163
ெ	1161
ண	1159
ಾಗಿ	1159
ங்க	1158
C	1154
டி	1150
(_	1150
▁வ	1129
ூ	1129
▁ಬಳಸ	1129
Comment	1128
ையை	1123
லி	1119
▁ದ	1119
▁"	1112
▁s	1112
E	1111
▁ನಿ	1093
▁ந	1092
ப்	1086
▁a	1048
▁ಮಾಡ	1046
ಿಸುವ	1041
▁%1$	1022
ನೆ	1021
▁~	1020
ಿಕ	1016
▁%2$	1008
று	1003
▁மு	1003
தி	999
re	997
ால்	995
▁ವ	993
ೆಯನ್ನು	990
▁தேர்வு	988
▁ನಲ್ಲಿನ	986
ிய	985
ಾದ	982
...	981
▁ಸಾ	979
மை	977
ಕ್	977
▁ஏ	970
or	963
ற்ற	959
▁ಗ	957
ீ	952
▁@	952
▁ಜ	951
▁ஒ	950
▁-	948
ಶ	945
'	940
w	940
▁CD	940
ற	932
▁ಕಡತ	926
ೊ	926
ள்	922
▁ಶ	921
▁இந்த	919
ುತ್ತದೆ	916
க்கவும்	906
▁S	905
▁w	896
ಿಲ್ಲ	896
ಾರ	894
▁நி	884
▁ச	882
▁நீங்கள்	882
A	881
▁ಸ್	873
▁ರ	870
்க	864
ொ	860
ಲ್ಲ	859
ವಿ	858
▁ತ	857
▁2	844
ம்ப	840
ள்ள	840
ಂ	840
ழ	837
O	837
ಲಿ	834
▁வட்டு	832
▁அல்லது	829
್ಯ	827
ತ್	825
▁பயன்படுத்த	823
லா	822
▁அமை	819
தை	819
▁&	819
▁ದೋಷ	817
on	816
னை	815
▁ಹೊಸ	813
ವಾದ	807
▁ಖಾಲಿ	804
▁போ	803
▁c	802
▁ಅಥವ	801
್	799
▁ಹೊಂದ	798
▁நக	793
ಂದ	790
v	788
ಜ	788
ಡಿ	786
▁ಫ	786
▁Name	785
▁ಉ	785
▁ಹಾಗು	784
▁கோ	781
ரை	780
▁the	780
ou	780
▁கா	779
ப்பட்ட	772
▁ಆಯ್ಕೆ	772
P	771
ಾಯ	768
್ರ	766
M	765
ங்கு	762
1	762
ಗೊಳ	761
▁ಸೇ	759
2	757
ಕೆ	757
▁விளையாட்டு	755
in	754
ವಾಗಿ	750
▁கொ	746
▁நகர்த்து	745
ಚ	745
த்தில்	744
ಿಂದ	744
றை	737
ದೆ	737
▁ಯ	737
0	735
▁இரு	733
மா	731
▁புதிய	728
es	728
L	727
▁இட	725
ரம்	722
▁செய்ய	719
▁சி	719
ಧ	719
த்தின்	717
!	713
▁ಗೆ	713
ட்	712
ಂತ	707
ic	703
▁ಸಂ	699
ட்டி	696
ತೆ	696
▁ಚಿತ್ರ	695
ಭ	695
ಿಕೆ	695
▁இல்லை	690
ளை	689
்	686
ಣೆ	683
ಷ	683
▁ಆಟ	680
H	679
ಿತ	679
▁ನಿಮ್ಮ	678
ಿರ	674
▁P	672
ಕ್ಷ	670
▁ಆರಂಭ	670
ವೆ	668
▁முடியவில்லை	665
▁மே	664
ச்ச	660
▁ಒ	658
▁பெயர்	657
▁தே	657
b	654
V	654
ண்ட	652
ಿರುವ	652
ையில்	651
▁ಮಾಡಿ	649
N	648
▁DVD	648
ಕ್ತ	648
:%	646
▁ಬಣ್ಣ	646
▁ಗಾತ್ರ	646
ುತ್ತ	644
எ	639
மாக	637
▁மாற்ற	634
▁அளவு	629
ಮಾ	628
ಕ್ಕ	627
▁d	626
▁ಸು	626
்ப	625
▁A	624
ಫ	622
al	621
னி	620
▁காட்டு	620
ಿದೆ	620
▁p	616
ಮ್	616
ங்களை	611
=	607
ಥ	607
ರುವ	607
ழு	601
த்தி	601
▁G	599
▁ಕಡತಗಳನ್ನು	599
_	597
6	597
▁X	597
▁எழுத	597
▁C	596
▁I	595
ಗೊಳಿಸು	595
ಾರ್	595
ಂಟ	594
U	593
ಂಡ	588
க்கம்	585
ma	584
ಾವ	584
▁ಸೂಚ	583
▁மற்றும்	582
றி	582
▁info	582
▁வெள்ளை	581
ணி	579
ದ್ದ	578
▁ಹೆಸರು	577
▁ಪರಿ	577
ப்பா	576
en	576
te	576
▁b	576
ಬ್	576
த்	575
தா	573
ற்று	573
▁F	573
ಂಬ	573
▁கருப்பு	571
சை	569
க்கும்	567
ಾಕ್	567
ையும்	566
ಿಸಲಾದ	566
▁ಮಾ	566
ರಿಸು	564
▁(%	563
வா	562
▁ಡಿಸ್ಕ್	561
ரா	559
▁ದಯವಿಟ್ಟು	559
▁டிவிடி	558
▁ತೋರಿಸು	558
▁l	557
ತಿ	557
ட்டை	556
▁சிடி	552
▁ಯಾವುದೆ	552
▁ಕಪ್ಪು	551
ನು	550
):	549
ஸ	547
ற்ப	546
me	546
at	545
ಾಗಿದೆ	545
லாம்	544
▁N	544
டை	542
ியை	541
ಲೆ	541
ந	540
▁ಅನ್ವಯ	540
▁வே	539
▁முன்	537
ையா	532
வே	532
வில்லை	532
ங்கள	531
B	531
ಳಿ	531
▁t	529
x	528
ಟ್ಟ	528
▁ವರ್ಗಾಯಿಸು	528
்ட	526
ra	526
▁ನಂತರ	523
ಪ್	522
கு	521
▁ಪ್ರತಿರೂಪ	521
▁கே	520
▁சு	520
ரிய	519
▁பிழை	518
கள	517
▁பெ	513
W	513
ಡು	512
ಂಕ	512
▁ಚ	512
▁ಬರೆಯುವ	512
▁'	511
சி	510
▁வட்டை	509
ளி	505
▁ಬಿಳಿ	505
;	504
▁ಸ್ಥಳ	504
▁செ	501
nd	500
ய்	498
ತ್ಯ	498
▁h	497
▁தேர்ந்தெடு	497
ar	494
op	494
ೃ	493
மான	492
▁ಲ	490
th	487
▁கு	487
▁செய	486
▁செய்து	485
G	484
ಗಳಲ್ಲಿ	484
le	482
▁g	482
ற்க	481
9	480
▁M	480
is	479
▁பி	477
ர்கள்	477
்கு	474
▁ஒலி	472
▁பு	472
nt	469
▁ಸಂಖ್ಯೆ	468
ಯಾ	466
▁து	465
▁ಡೈಮಂಡ್	465
ti	464
▁D	463
▁ಕ್ರಮ	462
>	459
an	459
್ಯಾ	458
▁Y	455
▁ವಿನ್ಯಾಸ	455
▁தொட	454
ation	454
ಬಹುದು	454
ನ್ನ	453
▁காண	451
ப்படும்	451
ot	451
ನೆಯ	450
▁பட	449
▁ஆட்ட	448
▁3	448
▁%(	448
ಡ್	447
+	444
▁T	444
ாத	443
▁துவ	442
டுக	441
ப்பை	441
ವಾಗ	441
ர்வு	440
▁ಹಾ	440
▁ய	439
▁சே	439
▁தட	438
▁சாளர	436
▁என	435
ಿಗೆ	435
]	434
▁u	434
▁ಆಟಗಾರ	434
▁ಡಿಸ್ಕನ್ನು	434
▁ನಡೆಸ	433
▁ಕಡತವನ್ನು	433
ರಿಸಿ	433
லிருந்து	430
ೌ	429
▁ಆಟದ	429
▁ಬೇ	428
▁ಜಾಗ	428
ಬಹುದಾದ	428
ಷ್ಟ	426
ing	425
ன்ப	424
▁பலக	422
▁/	422
கிறது	421
▁நிர	420
▁வெட்டியது	420
▁ಹೊಡೆಯುತ್ತದೆ	420
▁ಕಡತಕೋಶ	420
▁பொரு	419
▁வேண்டுமா	419
க்கான	418
ண்டு	418
▁ಮಾಡು	418
▁ಬರೆಯ	418
▁மீ	417
ப்பட்டது	417
5	416
▁மூ	416
▁தொ	416
▁ಡ	416
▁பதி	415
களின்	413
▁நீ	411
▁ಮಾಡುವ	411
க்கி	410
ಗೊಂಡ	409
▁in	408
▁வெற்று	408
▁ತೆಗೆದು	408
▁வெ	407
▁முடி	407
▁தயவு	406
▁com	406
ಟ್ಟು	406
மு	405
▁க்கு	405
▁ದತ್ತಾಂಶ	405
▁சேமி	404
de	404
▁ಕಳವರ	404
il	403
ೇಶನ್	403
▁பிம்ப	401
▁ಆರ	400
திய	399
▁உங்கள்	398
ಲಾಗಿದೆ	398
▁ಇಸ್ಪೀಟ್	396
ன்ற	395
ಿರಿ	395
▁ಮೂ	395
ஜ	393
▁ಇರುವ	393
F	392
▁ಐ	392
▁ತೆರೆ	392
▁ಕ್	391
டிய	390
▁வரி	390
್ರಾ	390
▁ನಿರ್	390
டுத்த	387
3	386
▁நிற	386
மி	385
▁எழுது	385
▁ಪರಿಯೋಜನೆ	385
தல்	383
▁திட்ட	383
்பு	382
▁இய	382
se	382
▁ತೆರೆಯ	381
▁தா	380
ಬೇಕೆ	379
▁ಡಿಸ್ಕಿನ	379
ol	377
el	377
▁அறி	377
ಾಲ	377
ರ್ಗ	377
▁முறை	376
▁கோப்புகளை	376
▁ಕೀಲಿ	376
▁ಎಲೆ	375
▁ಎಂದು	375
▁ಗಣಕ	375
ನಾ	373
ಗಳಿಗೆ	373
▁சா	372
ார	372
▁கி	372
▁விடியோ	371
▁ನಡೆ	371
▁ಲೋಡ್	370
ொரு	369
ನಿ	368
▁ಸಾಧ್ಯವಾಗಿಲ್ಲ	368
▁ಮೇ	368
▁ಶಕ್ತ	368
▁விசை	367
ிற	366
களுக்கு	366
▁ப்ராஸரோ	366
▁Brasero	366
டுத்து	365
▁மீது	365
ுக்கு	365
ப்பட	364
▁செய்க	364
ீடு	364
ಿದ	364
ಂತ್ರ	364
▁ಪಠ್ಯ	364
▁e	363
▁ಎಲ್ಲಾ	363
▁சீட்டு	362
▁<	362
▁[	361
ೊಂದಿಗೆ	361
▁குறி	360
▁கட்ட	360
▁f	359
▁ಇನ್ನ	359
ையான	358
ri	358
▁ಹುಡುಕ	358
▁மெ	357
▁ಆಟವನ್ನು	357
▁ನೆ	357
ப்பி	356
▁K	356
▁அடைவு	356
▁மேல்	355
▁OF	355
▁TRANSLATORS	355
▁கணி	354
ந்தது	354
இ	354
▁ಗು	354
▁விருப்ப	353
▁நகர்த்த	353
▁தி	352
▁வேண்டிய	351
ணம்	350
▁ಬಿ	349
\	348
ೆಯು	348
▁ಮಾಡಲು	348
▁ವಿಂಡೋ	348
▁x	347
▁ಏ	347
ಿಸಲಾಗಿದೆ	347
ஐ	346
▁ಇಲ್ಲ	346
um	345
ண்	344
தில்	344
▁தலைப்பு	344
ோது	343
▁ಸ್ಥ	342
▁டைமண்டின்	341
▁ಬದಲಾಯಿಸು	341
கா	340
▁action	340
ಅ	340
ಾಸ	340
ಿಸುತ್ತದೆ	339
▁அமைப்பு	338
▁திற	338
ist	338
▁ಬದಲಾವಣೆ	338
▁க்	337
ರಿಸ	337
▁இது	336
▁அச்ச	336
▁ಸಂಪರ್ಕ	336
▁எண்ணிக்கை	335
▁m	335
ದರ	335
ட்டம்	334
ನೆಯನ್ನು	334
ಿದ್ದ	333
ಪ್ರ	333
▁விள	332
▁ஏற்ற	332
▁தரவு	332
ಲಾಗುತ್ತಿದೆ	332
ಡಿಯೋ	332
▁GNOME	331
▁குறிப்பி	331
ರನ್ನು	331
▁ಹೆಸ	331
▁பயன்படுத்து	330
மே	330
▁ನಿರ್ಮ	330
களில்	329
▁பிரி	329
ழி	329
z	329
▁of	329
DVD	329
▁k	329
ೆಕ್	329
ட்டிய	328
▁ட	327
▁உரு	327
ಂಗ್	327
ಂತೆ	327
ss	326
tion	326
▁ಚಲ	326
லக	324
ಲಾಗುವ	324
▁ಬಗೆ	324
▁ಸಾಧನ	324
)...	323
ಳೆಯ	323
▁ஹார்ட்ஸின்	322
▁ಉಳ	322
▁வகை	321
ುದಿಲ್ಲ	321
▁ಕೊ	321
▁உருவா	320
க்கிறது	320
▁month	320
ಇ	320
ರಾ	320
ட்டில்	318
பி	318
டும்	318
▁ಮು	318
ಿಗ	318
க்கப்பட்ட	317
▁ಅನುಸ್ಥಾಪ	317
்த	316
▁நீக்கு	316
di	316
ಲಿನ	316
chess	315
▁ತೋ	315
ಷ್ಟು	315
▁ಆಯ್ಕ	315
ಾಕ	313
▁ವೀ	313
▁படி	311
▁அடி	311
▁க்ளப்ஸின்	311
ல்கள்	311
▁இருந்து	311
தற்கு	311
ver	311
ಿಕ್	311
▁ಸೆ	311
ರೆಯ	311
▁ಹಾಕ	311
▁ಚಿ	311
▁ಪಟ್ಟಿ	310
▁ಮುಂದ	310
ಲಾಗ	310
▁ಗುಂಡ	310
▁ಪಟ್ಟ	309
ೀರಿ	309
ಾಪ	309
▁ಕೆಳ	308
▁y	307
▁ಅಂಕ	307
▁மா	306
▁ஜ	306
▁st	306
ಿಯು	306
▁ಅಳ	306
▁விளையாட்டை	305
வது	305
et	304
▁ஸ்பேடின்	304
ழ்	303
▁L	303
ess	303
▁ಚೌಕ	303
▁விளையா	302
▁ವ್ಯವಸ್ಥ	302
ಾನ	302
▁ಸಹ	301
ದ್ದು	301
▁ವರದ	301
▁ಹೆಚ್ಚ	301
▁ಸಂರಚ	301
▁நே	300
பா	300
×	300
கம்	299
ಪಟ್ಟ	299
▁ಟ್ರಾಕ	299
▁பிம்பத்தை	298
GenericName	298
ೋಟ	298
▁ಕಿಟಕಿ	298
▁title	297
ಗೆಯ	296
▁ಟೇಬಲ್	296
▁ವಿವರ	296
▁நிலை	295
க்கை	295
ser	295
ುದು	295
▁மாற்று	294
▁ಇದು	294
▁மீண்டும்	293
▁label	293
▁ಗಣಕತೆರೆ	293
ೇಶ	293
▁ಎರಡು	293
▁ನೋ	293
▁ನಲ್ಲಿ	293
ವಾಗಿದೆ	293
▁is	292
▁குறை	292
ck	291
▁சீ	291
ay	291
ಷ್	291
▁அக	290
▁ಕಡತದ	290
▁ಅಗಲ	290
ಗೊಳಿಸಿ	290
▁சேர்க்க	289
pl	289
▁n	289
ಂಚ	289
ಡಿಯ	289
▁ಸೂ	289
▁ಒಂದ	289
ುದನ್ನು	289
▁வெற்றி	288
ந்து	288
ಲಾಗಲಿಲ್ಲ	288
of	287
▁ராஜா	286
▁ಹೊರ	286
▁ಟ	286
ವಾ	286
ஷ	285
▁இன்	285
ೋಗ	285
▁ರಾಜ	285
ர்ப	284
▁சொடு	284
ையின்	284
▁திட்டத்தை	284
▁ಪರಿಯೋಜನೆಯನ್ನು	284
▁துவக்க	283
▁கை	283
▁KDE	283
▁ಆಗ	283
▁ಆಯ್	283
லும்	282
ce	282
▁ಕೆಲ	282
▁ಕಾಪಿ	282
▁செய்	281
02	281
ளர்	281
▁எடு	281
▁அம	281
▁bu	281
▁ಕ್ಯಾ	281
ಿಸ್	281
▁உதவி	280
ಲಾದ	280
್ಲ	280
▁மொ	279
st	279
▁வை	279
og	279
ತು	279
▁ಸಮಯ	279
▁ರಚ	279
▁ಪ್ರತಿರೂಪವನ್ನು	279
மதி	278
▁உரை	278
கி	277
4	277
▁http	277
▁re	277
).	276
▁வடிவமை	276
ೊಂದ	276
om	275
▁பக்கத்தில்	275
ಿಸಲಾಗುತ್ತಿದೆ	275
ற்சி	274
▁name	274
▁ಪ್ರತಿ	274
▁ಖ	274
▁நிரல்	272
▁உள்ளி	272
▁அனுமதி	271
j	271
bo	271
bu	271
▁ರೂ	271
▁பட்டிய	270
▁சேமிக்க	270
ನನ್ನು	270
ಾಲಿ	270
ೊಂಡ	270
ச்	269
▁திரு	269
▁ಮೇಲೆ	269
▁ಕಾಯ	269
▁கீ	268
▁ಆಡ	268
▁ಮೊದ	268
ಬೇಕಿರುವ	268
▁அதிக	267
டுகிறது	266
ven	265
ಿಗಾಗಿ	265
▁ಜಾಲ	265
▁வெளி	264
▁to	264
▁மதிப்பு	264
ಸ್ತ	264
▁ಓ	264
▁ಮೌಲ್ಯ	264
அ	263
▁நடப்பு	263
▁பிம்பம்	263
▁ಪ್ರಸ	263
க்கள்	262
ெய	262
ர்க	262
▁பண	262
▁B	262
▁ರೆ	262
ப்பில்	261
am	261
▁சொ	261
▁உருவாக்க	261
ian	261
▁ಅಗ	261
ளம்	260
ed	260
▁200	260
K	260
▁ಇರಿಸು	260
▁ವೇಗ	260
▁ಬಯಸುತ್ತೀರೆ	260
▁4	259
ow	259
ಮೆ	259
▁ತೆ	259
▁செயல்ப	258
டல்	258
▁உருவாக்குக	258
▁ಬೆಂಬಲ	258
▁ಒಳ	258
னால்	257
▁ಕೈ	257
▁காட்ட	256
ಿಸಿದ	256
ಗ್ರ	256
▁ಬರೆಯಲು	256
▁th	255
▁நகலெடு	254
▁வண்	253
▁r	253
▁கரு	252
▁கருவி	252
▁ರಾಣಿ	252
ದರ್ಶ	252
▁ಇಟ್ಟಿಗೆ	252
▁ಮತ್ತು	252
▁ಅಕ್ಷ	252
ர்க்க	251
ார்	251
னு	251
ிறது	251
ate	251
ಿಯಲ್ಲಿ	251
▁சிற	250
8	250
▁ஓ	250
வற்ற	250
▁புதி	250
▁நீக்க	250
▁எழுதுதல்	250
▁//	250
▁உர	249
▁ಕಂಡು	249
ಎ	249
▁ಪುಟ	249
▁5	248
▁என்ப	248
ಢ	248
ಿಕೆಯ	248
▁ಸರಿಯ	247
▁வேண்டும்	246
▁ராணி	246
ಗಿನ	246
▁item	245
as	245
▁--	245
வாக	245
▁சுழ	245
▁திட்டம்	245
▁ಅಂಶ	245
ದಿಂದ	245
▁ಕಾಲ	244
▁கட்டு	243
▁ನಿಜ	243
▁ಭ	243
ಶ್	243
▁குறிப்பு	242
ஃ	242
ப்பெ	242
▁'%	242
▁சாதன	242
▁ಪ್ಲ	242
ುದ	241
▁ಹಿನ್ನ	241
▁ಪುನ	240
ಣಾ	240
▁ಪರೀಕ್ಷ	240
ದ್ದಲ್ಲಿ	240
▁தர	239
▁வரை	239
ற்றி	239
▁கோப்பை	239
▁மட்டு	239
▁கோப்புகள்	239
▁ஆத	239
ಸೆ	239
▁ಕಾರ್ಯ	239
▁ஜி	238
▁தோ	238
ெடுத்த	238
ಡೆ	238
▁ಡೀಲ್	238
ರ್ತ	238
வ்	237
--	237
▁மைய	237
▁ಈಗ	237
▁ಮಾತ್ರ	237
ஆ	236
த்துக்கு	236
▁ಮರಳಿ	236
▁ಸಮ	236
ಬೇಕ	236
▁முழு	235
லில்	235
Y	235
▁Comment	235
ಚ್ಚ	235
ತ್ರ	234
▁ಒತ್ತ	234
ೋರ್	233
ತ್ತು	233
ದ್ಧ	233
▁பயன்படும்	232
த்திற	232
▁ಗಳು	232
ಧ್ಯ	232
ಬಂದ	232
ையாக	231
▁பின்	231
▁இடம்	231
ெடு	230
ೋಕ	230
ಕೊಳ್ಳಿ	230
ಕರ	230
▁ಬಳಸಿ	230
ಪಡ	230
▁ಮಾರ್ಗ	230
▁ಗುಣ	229
▁பட்டியல்	228
▁i	228
▁அகலம்	228
ul	228
▁சோதி	228
▁தகவல்	228
ile	228
▁se	228
it	228
▁ಈಗಿನ	228
ர்ட	227
ல்க	227
▁W	227
೦	227
ுடன்	226
ுக	226
டக்க	226
CD	226
",	225
▁எழுதக்கூடிய	225
▁ಆವೃತ್ತ	225
ರಿಸುವ	225
▁ಪರಿಚಾರಕ	225
▁ಶೀ	225
▁விளையாடு	224
▁போது	224
▁ಅಧಿವೇಶನ	224
▁ಕಡತಗಳು	224
▁இற	223
▁தெரியாத	223
xt	223
▁ಫಲಕ	223
▁நிறு	222
▁பகுதி	222
▁சேர்	222
ள்க	222
▁குறு	222
ான்	221
ண்மை	221
டியாக	221
▁ಸಮಸ್ಯ	221
▁ಬಹ	221
▁ಮೆ	221
கர	220
▁மறு	220
ಲ್ಪಡ	220
▁ಇದನ್ನು	220
▁ಸಕ್ರಿಯ	220
▁or	219
ತ್ತರ	219
ವನ	219
▁ವಿಭಜ	219
ஞ	218
▁பொத்த	218
option	218
ೊಂದು	218
▁ಸೇರಿಸಿ	218
ಿಯಾಗಿ	218
▁வர	217
▁ಬೋರ್ಡಿನ	217
▁ಮಾಹಿತಿ	217
ಹ್	217
ட்டின்	216
▁பின்னணி	216
▁பயன	216
ಂತಹ	216
▁ಗಳನ್ನು	216
▁ಬದಲಾಯ	216
▁ಆಡಿಯೊ	216
▁செருகுவா	215
ர்களா	215
▁அனைத்து	215
ಕಾ	215
ರಿಂದ	215
▁ತಾ	215
ಿಕೆಯನ್ನು	215
ಸೂಚ	215
▁பதிப்பு	214
ப்படி	214
▁க்னோம்	214
▁அட்டவணை	214
▁ಟ್ರ	214
ರಕ್ಷಿತ	214
▁ಉಳಿಸು	214
▁ಆದೇಶ	214
்ச	213
னிய	213
விய	213
▁பயன்பாடு	213
▁இயக்க	213
தன்	213
ಷಯ	213
▁ಹಿ	213
ಳು	213
▁ಮುದ್ರ	213
▁ವಿಳ	213
ரே	212
▁இயக்கி	212
▁ಆಟೀನ್	212
▁ಬದ	212
▁ಗುರುತು	212
ಬೇಕು	212
▁ಘ	212
▁ತಿ	212
▁ಸಂಪಾದ	212
▁ಡಿಸ್ಕಿಗೆ	212
ype	211
சிய	211
▁நீக்கவும்	211
escription	211
▁ஒழு	211
ವ್	211
ಡೆಯ	211
ದಲ್ಲಿನ	211
▁ಮಾಹಿತಿಯನ್ನು	211
ானை	210
ಲಾಗುತ್ತದೆ	210
ನ್ನೂ	210
▁ಇಲ್ಲಿ	210
▁ಬಯಸ	210
வில்	209
▁தகவ	209
ಖ	209
▁ಅದನ್ನು	209
▁எந்த	208
▁இயலவில்லை	208
க்ச	208
▁Z	208
▁கடை	208
▁ஆக	208
▁அனு	208
▁ತೆಗೆದುಹಾಕು	208
ಚ್ಛ	208
▁ವೀಡಿಯೊ	208
▁ಅನ	207
ವಿಲ್ಲ	207
ವೇಶ	207
▁ಲಂಬ	207
▁ಕೇಂದ್ರ	207
ith	206
க்குக	206
▁U	206
isc	206
▁ಯಾ	206
೧	206
ಕದ	206
டன்	205
ல்ல	205
ib	205
ೇಜ	205
ಪದ	205
ೇತ	205
▁பல	204
ப்பின்	204
▁நிறுவ	204
▁அடை	204
q	204
▁ಮೂಲ	204
▁ಕಳ	204
ಗಾರ	204
▁ಬದಲ	204
ப்படவில்லை	203
▁பிர	203
ரோ	203
▁தெ	203
▁உயரம்	203
க்குகிறது	203
▁இடைவெளி	203
▁மிக	203
tt	203
ಪ್ತ	203
▁தொகு	202
ங்களுக்கு	202
▁காட்சி	202
ve	202
ಣಿ	202
ಲ್ಲಿನ	202
ಗ್ಗ	202
▁ಸಾಧ	202
▁ಮುನ್ನೋಟ	202
▁ಡ್ರೈ	202
ழை	201
age	201
▁அணுகக்கூடிய	201
arch	201
▁ಕೋ	201
▁பொது	200
▁இர	200
▁கூ	200
▁ಕ್ಲಿಕ್	200
▁ಸ್ಥಾನ	200
▁ಬಳಸು	200
▁ನಡುವ	200
▁பிடி	199
▁எல்	199
க்கூடிய	199
▁பெய	199
=\\\\	199
್ಯವಿಲ್ಲ	199
▁ಎನ್ನುವು	199
ோதைய	198
▁விரும்புகிறீ	198
▁ಉಪಕರಣ	198
ab	197
ran	197
கவ	197
▁இணைப்பு	197
mage	197
ೈನ್	197
ಆ	197
▁ಬಾರಿ	197
▁விவர	196
▁இரண்டு	196
▁முடிய	196
▁தேர்	196
ಂಡು	196
ಬಂಧ	196
ಾಂಶ	196
▁வழு	195
▁வரு	195
▁ಸೈ	195
▁ಕೀಲಿಯ	195
ರಿಯ	195
ರಿಸಲು	195
▁மேசை	194
்ட்	194
7	194
▁அட	194
▁குறிய	194
ive	194
▁Long	194
ಸಾ	194
▁ಗೊತ್ತ	194
▁ಭಾಗ	194
▁ವಿಡಿಯೋ	194
▁மதி	193
நி	193
▁எழுத்துரு	193
ெழு	193
▁ಆದ್ಯ	193
லு	192
pe	192
▁வெளியே	192
▁விச	192
▁வீடியோ	192
▁வட்டுக்கு	192
Query	192
▁ಹೊಂದಿರುವ	192
▁ಮಾಡಲಾದ	192
ಟು	192
▁ಕೇವಲ	192
▁ಬಳಕೆದಾರ	192
▁ನಿಲುಕಿಸಿಕೊಳ್ಳ	192
▁முக்கிய	191
▁இல	191
▁வழ	191
▁ஒன்று	191
ண்க	191
▁மேலா	191
லம்	191
▁மின்ன	191
name	191
▁ನಿಯಂತ್ರ	191
▁ಕಿಟಕ	191
ಪ್ಪ	191
ಧಾನ	191
ಾತ	191
ಫಲ	191
ard	190
▁சாளரத்தை	190
ig	190
ion	190
▁inmenu	190
ಗಾಗಿ	190
▁ಬರೆಯಲಾಗುತ್ತಿದೆ	190
க்களை	189
▁வல	189
▁எண்	189
ப்படுத்த	189
ಸಿ	189
ಜ್ಞ	189
ೇಖ	189
▁ஜாக்	188
▁வா	188
▁திறக்க	188
▁முன	188
ಫ್	188
▁ಬಳಸಬೇಕಿರುವ	188
▁ಯಶಸ್ವ	188
மேசை	187
▁அழு	187
▁MiB	187
▁Short	187
▁ಮುಚ್ಚ	187
▁ಹಿಂದ	187
ಚಿತ	187
ಾಷ	187
குதி	186
தம்	186
▁0	186
பட்ச	186
▁எழுதும்	186
ರುತ್ತದೆ	186
▁ಬದಲಾಯಿಸಿ	186
ாது	185
க்கப்பட்டது	185
▁ನೀಡ	185
▁ತುಂಬ	185
ட்ச	184
▁செய்த	184
▁பக்க	184
▁தனி	184
▁உடன்	184
▁நேர	184
oc	184
indow	184
▁check	184
▁ಪೂರ್ವನಿಯೋಜಿತ	184
ನಿಕ	184
▁ನಕ	184
▁கடி	183
▁செயல்	183
▁இருக்க	183
EMAIL	183
ಿತಿ	183
ರವು	183
ಲಾ	183
▁ನಿಮ	183
▁ಸಂಯೋಜ	183
▁ಬರೆ	183
▁ಪರಿಯೋಜನೆಯ	183
ew	182
▁வீர	182
........	182
ub	182
▁ಚೆ	182
▁ಕೊಂಡ	182
▁ಪರಿಣಾಮ	182
▁சரியாக	181
▁{@}	181
ಸ್ಕ	181
ಬೋ	181
ಕ್ರಿಯ	181
ருப்பு	180
ரத்து	180
▁அடுத்த	180
ர்த்த	180
தும்	180
▁முடியாது	180
வரி	180
▁நினை	180
▁பாதை	180
್ಳ	180
▁ಕೆಡಿ	180
ಿಸಲಾಗಿಲ್ಲ	179
▁ತಿರ	179
▁ஆவண	178
▁புள்ளி	178
னா	178
J	178
ணை	178
ஆர்	178
தற்க	178
▁ma	178
▁ಆರಂಭಿಸು	178
▁ಕಾಣ	178
ದನ್ನು	178
▁ಗುರು	178
ட்க	177
ங்கி	177
ல்கள	177
▁ಪೂರ್ಣ	177
▁ಬಗ್ಗೆ	177
ರೆಯನ್ನು	177
▁ನಾಲ್	177
▁ವ್ಯವಸ್ಥಾಪ	177
▁ಕನಿಷ್ಟ	177
▁மூன்று	176
▁இயந்தி	176
▁செல்லுப	176
▁மாற்றுக	176
icense	176
▁ಕ್ಲಿಕ್ಕ	176
ಮ್ಮೆ	176
ೊಡ್ಡ	176
▁ಗಳ	176
▁ಕುಸಿತ	176
▁குதி	175
ெய்	175
game	175
▁ತಾತ್ಕಾಲಿಕ	175
ಂಟ್	175
ದಾದ	175
▁ನಮೂದ	175
▁ಕುದು	175
▁ಒಂಟ	175
▁ಇನ್	175
ರಿನ	175
▁ಬರೆಯಬಹುದಾದ	175
ப்பான	174
▁for	174
வர்	174
த்தம்	174
▁காலிய	174
ong	174
▁UR	174
AME	174
▁ತೋರಿಸ	174
▁ನಡ	174
▁ಆಯ್ಕೆಗಳು	174
ಜೀ	174
▁ಅಕ್ಷರಶೈಲಿ	174
▁இயலா	173
▁அள	173
▁கடவு	173
ರೂ	173
ಿಗಳನ್ನು	173
▁ಅನುಮ	173
ಮಾಡ	173
ಶೀ	173
▁பொருள்	172
▁கண்டு	172
▁இயல்பான	172
▁இன்ன	172
▁உள்ளது	172
..	172
▁H	172
AR	172
ಿಸಬೇಕೆ	172
ಂಪ	172
▁ಕಾ	172
ಂಗ	172
▁சீட்டை	171
▁.	171
▁it	171
ச்சொ	171
▁பட்டி	171
atus	171
▁ಟೆ	171
▁ஐந்து	170
▁செயல்படுத்து	170
▁ಸಾಮಾನ್ಯ	170
▁ಆಟಗಳ	170
ೆಯೆ	170
▁ಬಲ	170
ಲೆಯನ್ನು	170
▁ಲಭ	170
▁ಹಾಕು	170
ಿಮುಲ	170
▁சாள	169
்து	169
್ರಮ	169
வெ	168
ಡ್ಡ	168
ಟಕ	168
உ	167
ಃ	167
▁ಬಾ	167
▁ப்	166
ಂಶ	166
▁தேர்ந்த	164
us	163
ಕೊಳ್ಳ	163
ಬಲ್	163
▁ಕಡ	162
▁ರಾ	161
ತ್ತದೆ	161
▁ஸ்பே	160
கை	160
ame	157
▁இணை	157
ஹ	157
*	157
ஊ	155
▁ಆದ	154
ாக்	153
▁எழு	153
rasero	153
ಂಭ	153
ೂರ್	153
▁வெளிய	152
▁O	152
▁ಉಪ	152
ರದ	152
▁வடி	151
ಲಿಯ	151
ಝ	150
ಾಗಿಲ್ಲ	149
▁ಎರ	149
▁ಎಲ್ಲ	149
ಂತರ	148
டைம	147
he	147
▁ಅನು	145
▁ಹೊ	144
வர	143
ூடிய	143
ಲಕ	143
ன்று	142
க்கிய	142
ர்கள	142
X	142
ಗ್	141
▁ಇಸ್ಪೀ	141
ಬೇ	140
▁ನೀ	140
#	139
▁மற்ற	138
▁பொ	137
▁இயல	137
▁ரா	136
▁ಹೆ	136
ಿಸಲ	136
ವಯ	136
லிய	135
ಿಮ	135
▁ಡಿಸ್ಕ	135
ಪಿ	135
▁உத	134
▁ಸಾಧ್ಯವ	134
00	133
▁ಕೆ	132
▁ವೇ	132
ಧಿ	131
▁ಯಾವು	130
—	129
ಠ	129
ின்ன	127
ಬಹುದ	127
▁ಆಟೀ	127
ಟ್ಟಿಗೆ	127
▁வேண்ட	126
ಘ	126
ener	125
ೋಶ	125
ನ್ಯಾಸ	125
▁பயன்பா	123
ற்	122
`	122
Q	120
ார்ட்	120
▁ಮೊ	120
ಂಡ್	119
್ಯವ	119
▁சோ	117
ிறீ	116
▁ನಿಯ	116
ೊಳ್	116
ನ್ಯ	116
▁ಮೌ	116
ಜ್	114
▁அனை	112
▁GN	112
ಂದು	112
ಕರಣ	112
▁ஹ	107
▁பய	107
▁நட	107
ತೆರೆ	107
ಲ್ಯ	107
▁ಸಂಪ	107
ort	106
ಹಾಕ	106
ல்ப	104
டிவிடி	104
ஏ	103
றிய	103
▁ಪು	103
▁ಕು	102
▁பயன்ப	101
▁ನಮೂ	101
▁ಬಗ್	101
ர்த	100
ge	100
▁ப்ராஸ	100
▁ಗಾ	100
▁ಅಕ್ಷರಶೈ	100
ವರ	99
▁அணுக	98
hort	98
iB	97
ಒ	97
್ಯವಸ್ಥ	97
ಕೋಶ	97
AT	96
ch	96
ಮಾನ್ಯ	96
ೂಪ	96
ಾಲ್	95
▁ஸ	94
▁ಮಾಹಿತ	92
ವಲ	92
▁ಅಕ್ಷರ	92
ಯವಿ	92
▁ಹಾಗ	92
ங	90
▁ವರ್ಗ	90
೨	90
னோ	89
▁உய	89
▁ತು	89
▁ಬೆ	89
ண்டும்	88
▁செரு	87
ಡಿನ	86
DE	85
ೋಡ್	85
▁தெரிய	84
ஓ	84
▁ಕಾರ್	84
IL	83
▁பின்ன	83
தன	82
▁{	82
}	82
▁ಡೀ	82
ಣ್ಣ	81
▁ಬಳ	80
ந்தி	79
tem	79
menu	78
▁க்ளப்	77
▁செல்ல	77
ஒ	77
▁ಸಂಖ್ಯ	77
ೆಸ	77
▁ತೆಗೆದುಹಾಕ	77
ನ್ವಯ	77
▁வீ	76
ಖ್ಯ	76
ಸ್ಥ	75
ಲಿಲ್ಲ	74
ಚ್	73
▁ಹು	73
▁ಪೂರ್	73
▁ஹார்ட்	72
[	72
▁ಪ್ರತ	72
▁ಕೀ	71
▁ಬಳಕೆ	71
▁சரிய	70
uer	69
▁ಕಿ	69
▁டைமண்ட	68
▁தலை	68
▁காட்ச	68
ளிய	68
டிவி	68
▁க்னோ	67
ிக	67
Z	66
ಛ	66
▁நகல	65
ment	65
▁ನಿಲುಕ	65
▁தய	64
▁ಟೇ	64
▁விரும்ப	62
▁எழுத்து	62
ಡಿಯೊ	62
eneric	61
▁ಬೋರ್	61
ಮೂ	61
▁ದತ್ತ	61
....	60
ೊಳ	60
heck	59
▁ಬಯಸುತ್ತೀ	59
ುತ್ತಿದೆ	59
▁க்ள	58
fo	58
▁ಮರ	58
▁ವಿಭ	57
ವೃತ್ತ	57
▁வடிவ	56
೯	56
▁ಕೇ	53
ರಚ	53
crip	52
“	51
”	51
ಯ್	51
ಔ	51
▁ವಿಂಡ	51
ರೀ	51
ಾರಕ	50
⁄	49
೩	49
ಉ	48
▁ಬೆಂಬ	47
OR	46
ಣಕ	46
▁இயல்ப	45
ಾಯಿಸು	45
ண்டுமா	44
ction	44
ನ್ಯಾ	43
\\\\	42
೮	42
ೋಜ	41
ರ್ಕ	40
ಯಸ	40
೬	40
▁செல்லு	39
▁ತೆಗೆ	39
▁இடை	38
ME	38
AN	38
▁ஸ்ப	37
▁நகர்த	37
SL	36
ಊ	36
▁அதி	35
▁ಹೊಡೆಯ	35
ುತ್ತೀ	35
RAN	34
ಬಹ	34
ಐ	34
ஜா	33
ல்லது	33
ஈ	33
ಿಸಿಕೊಳ್ಳ	32
▁அண	31
ருந்து	31
ೋಷ	30
ಪ್ಪು	30
೭	30
\\	29
ணிக்கை	28
ರಕ್ಷ	28
ದಾರ	28
▁செருகு	27
▁ಡೈ	27
೪	27
டியோ	26
ind	26
ಹಿತ	26
೫	26
ோத	24
MA	24
ಸ್ಥಾಪ	24
ಪೀ	24
ಮ್ಮ	24
▁ಕನಿ	24
uery	23
ಂದ್ರ	23
▁புள்ள	22
«	22
ನ್ನೋಟ	22
tit	21
nu	21
ುಲ	21
ಓ	21
ಚಾರಕ	21
title	20
ೌಕ	20
▁விரு	19
ௌ	19
ದ್	19
▁ಬದಲಾವ	19
enericName	18
▁ಕ್ಲಿ	17
¡	16
ರೀಕ್ಷ	16
ುದ್ರ	15
2$	14
∞	14
ದರ್	14
ಂಧ	14
▁இடைவெ	13
̈	13
$	13
೬೪	13
ಋ	13
ಈ	13
~	12
ಸ್ವ	12
ಶೈ	12
▁கட	11
▁ப்ரா	11
டின்	11
ட்டவ	11
abel	11
ಸೂ	11
ತ್ಕ	11
▁ತಾತ್ಕ	11
ட்டவணை	10
ுகிறீ	10
▁ಯಶ	10
೭೫	10
ೃತ್ತ	10
¡	9
▁ಡ್ರ	9
▁ಎನ್ನು	9
̧	8
̧û	8
▁ಅಥ	8
ಧಿವೇಶನ	8
ವನಿಯೋಜಿತ	8
ः	7
ட்டியது	7
<	7
▁ஆவ	7
©	7
ttp	7
¢ðÊì	7
îÍ	7
OME	7
ஸின்	7
ಯೋಜ	7
ವೇಶನ	7
Â¢	6
¦À¡	6
escrip	6
–	6
▁mon	5
¦	5
ö	5
õ	5
ò	5
ý	5
cri	5
▁ಇಸ್	5
್ಣ	5
ಡುಕ	5
̄ûÇ	4
̈Á	4
ø	4
̧¡	4
▁வெள்ள	4
®	4
icen	4
೯೯೯	4
ಲುಕ	4
ü	4
̈À	3
É	3
Á	3
Ç¦Å¡	3
ôÒÅ	3
̈ÉòÐ	3
Â	3
¢	3
òÐ	3
಼	3
ಠ್ಯ	3
ವನಿಯೋಜ	3
ಏ	3
೨೪	3
è	2
EMA	2
omment	2
̈Ç	2
þó	2
ÜÚ	2
÷ìÌõ	2
̧ÙìÌ	2
¢ô	2
̧Ä¡	2
ÁüÚõ	2
Ã¢À¡	2
§	2
Îò	2
ÀðÊÂø	2
̧Ç¢ý	2
̈Â	2
ðÎõ	2
ü§À¡	2
÷ì	2
ð	2
ì	2
À	2
̄ûÇ£Î	2
௾	2
£	2
€	2
^	2
‘	2
’	2
→	2
ಮಂಡ್	2
á	2
ó	2
೨೩	2
೫೯	2
೩೨	2
ೊತ್ತ	2
೨೭	2
▁ಪರಿಣಾ	2
ವನಿಯ	2
Å	1
ÇÃò	1
¢ý	1
Àñ	1
ÍÕìÌÅ¢	1
̈ÁôÒ	1
Ã¢Â¡	1
§Å	1
̧¢È	1
¡±É	1
Ã¢ôÀ¡	1
ÅÈ¡	1
Ç¢ò	1
̈ÁìÌû	1
Ã¢¦	1
öÂ	1
ÓÂü	1
¢ì	1
÷òÐ	1
̧Ôõ	1
Îõ	1
ôÒ	1
þÕó	1
ðÊÂÄ¢ø	1
̄ûÇ£	1
̄í	1
¢ðÊ	1
̧¢ø	1
¿¢	1
̈Ä	1
Ä¢É	1
þÂì	1
̧¢Â¡	1
̧÷Éø	1
ÁðÎõ	1
̧ñÎÀ¢Êì	1
þÂÖõ	1
Â¢ðì	1
ö§À¡	1
Ê¢ð	1
§ÁÖõ	1
Å¢ÅÃí	1
¿£í	1
þ	1
À¡	1
ÐøÄ¢Âò	1
¿Î§Å	1
̈Áó	1
̈ÇÔõ	1
¿	1
̧÷ò	1
¢Êì	1
£÷	1
Øò	1
í	1
ÀÂñÀ¡	1
÷ó	1
Õõ	1
̄Ä¡	1
Å¢Â¢ø	1
¢ÀÄ	1
Óó	1
¢ôÀð	1
Å£Ê§Â¡	1
́Ä¢	1
ͭ	1
೭೬	1
೯೫	1
ಿರೂಪ	1
ಸ್ಯ	1
ಸಿತ	1
ಯವಿಟ್ಟು	1
೯೯	1
ಌ	1
೬೮	1
೪೨	1
೯೩೭	1
೯೯೮	1
ಾಲಿಕ	1
